{"<|endoftext|>":0,"!":1,"\"":2,"#":3,"$":4,"%":5,"&":6,"'":7,"(":8,")":9,"*":10,"+":11,",":12,"-":13,".":14,"/":15,"0":16,"1":17,"2":18,"3":19,"4":20,"5":21,"6":22,"7":23,"8":24,"9":25,":":26,";":27,"<":28,"=":29,">":30,"?":31,"@":32,"A":33,"B":34,"C":35,"D":36,"E":37,"F":38,"G":39,"H":40,"I":41,"J":42,"K":43,"L":44,"M":45,"N":46,"O":47,"P":48,"Q":49,"R":50,"S":51,"T":52,"U":53,"V":54,"W":55,"X":56,"Y":57,"Z":58,"[":59,"\\":60,"]":61,"^":62,"_":63,"`":64,"a":65,"b":66,"c":67,"d":68,"e":69,"f":70,"g":71,"h":72,"i":73,"j":74,"k":75,"l":76,"m":77,"n":78,"o":79,"p":80,"q":81,"r":82,"s":83,"t":84,"u":85,"v":86,"w":87,"x":88,"y":89,"z":90,"{":91,"|":92,"}":93,"~":94,"¡":95,"¢":96,"£":97,"¤":98,"¥":99,"¦":100,"§":101,"¨":102,"©":103,"ª":104,"«":105,"¬":106,"®":107,"¯":108,"°":109,"±":110,"²":111,"³":112,"´":113,"µ":114,"¶":115,"·":116,"¸":117,"¹":118,"º":119,"»":120,"¼":121,"½":122,"¾":123,"¿":124,"À":125,"Á":126,"Â":127,"Ã":128,"Ä":129,"Å":130,"Æ":131,"Ç":132,"È":133,"É":134,"Ê":135,"Ë":136,"Ì":137,"Í":138,"Î":139,"Ï":140,"Ð":141,"Ñ":142,"Ò":143,"Ó":144,"Ô":145,"Õ":146,"Ö":147,"×":148,"Ø":149,"Ù":150,"Ú":151,"Û":152,"Ü":153,"Ý":154,"Þ":155,"ß":156,"à":157,"á":158,"â":159,"ã":160,"ä":161,"å":162,"æ":163,"ç":164,"è":165,"é":166,"ê":167,"ë":168,"ì":169,"í":170,"î":171,"ï":172,"ð":173,"ñ":174,"ò":175,"ó":176,"ô":177,"õ":178,"ö":179,"÷":180,"ø":181,"ù":182,"ú":183,"û":184,"ü":185,"ý":186,"þ":187,"ÿ":188,"Ā":189,"ā":190,"Ă":191,"ă":192,"Ą":193,"ą":194,"Ć":195,"ć":196,"Ĉ":197,"ĉ":198,"Ċ":199,"ċ":200,"Č":201,"č":202,"Ď":203,"ď":204,"Đ":205,"đ":206,"Ē":207,"ē":208,"Ĕ":209,"ĕ":210,"Ė":211,"ė":212,"Ę":213,"ę":214,"Ě":215,"ě":216,"Ĝ":217,"ĝ":218,"Ğ":219,"ğ":220,"Ġ":221,"ġ":222,"Ģ":223,"ģ":224,"Ĥ":225,"ĥ":226,"Ħ":227,"ħ":228,"Ĩ":229,"ĩ":230,"Ī":231,"ī":232,"Ĭ":233,"ĭ":234,"Į":235,"į":236,"İ":237,"ı":238,"Ĳ":239,"ĳ":240,"Ĵ":241,"ĵ":242,"Ķ":243,"ķ":244,"ĸ":245,"Ĺ":246,"ĺ":247,"Ļ":248,"ļ":249,"Ľ":250,"ľ":251,"Ŀ":252,"ŀ":253,"Ł":254,"ł":255,"Ń":256,"Ġt":257,"he":258,"Ġa":259,"Ġs":260,"Ġw":261,"Ġthe":262,"nd":263,"ed":264,"Ġb":265,"Ġto":266,"Ġand":267,"Ġh":268,"Ġf":269,"ĠT":270,"in":271,"Ġwa":272,"re":273,"it":274,"ou":275,"Ġl":276,"Ġd":277,"Ġc":278,"Ġp":279,"ay":280,"Ġm":281,"er":282,"Ġwas":283,"ĠThe":284,"om":285,"Ġhe":286,"is":287,"Ġn":288,"im":289,"ar":290,"on":291,"Ġsa":292,"ll":293,"id":294,"Ġha":295,"Ġg":296,"at":297,"ĠS":298,"ing":299,"ot":300,"en":301,"an":302,"le":303,"or":304,"ir":305,"am":306,"et":307,"ĠH":308,"Ġit":309,"Ġth":310,"ig":311,"ĠThey":312,"Ġpl":313,"Ġin":314,"il":315,"ĠHe":316,"Ġ\"":317,"ow":318,"ver":319,"ri":320,"Ġu":321,"ut":322,"Ġplay":323,"ith":324,"Ġsaid":325,"Ġbe":326,"Ġday":327,"Ġwith":328,"pp":329,"On":330,"Ġo":331,"Ġy":332,"oo":333,"ked":334,"Ġr":335,"Ġher":336,"ce":337,"ld":338,"Ġhis":339,"ĠTim":340,"ĠI":341,"ĠShe":342,"Ġst":343,"ke":344,"Ġe":345,"Ġbig":346,"nt":347,"ck":348,"very":349,"Ġyou":350,"st":351,"ve":352,"end":353,"un":354,"Ġhapp":355,"Ġon":356,"all":357,"riend":358,"Ġfriend":359,"Ġthey":360,"ĠL":361,"ily":362,"Ġwe":363,"Ġhad":364,"Ġup":365,"Ġli":366,"Ġnot":367,"her":368,"Ġwant":369,"itt":370,"Ġof":371,"ad":372,"Ġdo":373,"ĠB":374,"se":375,"Ġhappy":376,"ent":377,"Ġvery":378,"ĠM":379,"es":380,"Ġsaw":381,"One":382,"Ġthat":383,"ould":384,"'s":385,"Ġfor":386,"ittle":387,"Ġmom":388,"Ġlittle":389,"Ġso":390,"Ġsh":391,"Ġshe":392,"ime":393,"ch":394,"Ġnam":395,"Ġtime":396,"Ġk":397,"Ġne":398,"ound":399,".\"":400,"Ġthere":401,"Ġnamed":402,"Ġbo":403,"Ġsm":404,"Ġwere":405,"Ġwanted":406,"ĠLily":407,"Ġfriends":408,"out":409,"ird":410,"Ġbut":411,"ved":412,"ht":413,"!\"":414,"The":415,"ĠTom":416,"Ġbird":417,"el":418,"ake":419,"Ġan":420,"al":421,"Ġtoo":422,"ome":423,"Ġwent":424,"Ġwh":425,"ide":426,"Once":427,"Ġall":428,"ĠIt":429,"Ġhel":430,"ug":431,"ue":432,"Ġhelp":433,"Ġis":434,"Ġloo":435,"ĠA":436,"Ġupon":437,"Ġlo":438,"ter":439,"ry":440,"Ġtoy":441,"ore":442,"Ġfun":443,"ind":444,"get":445,"ill":446,"ame":447,"Ġas":448,"Ġj":449,"ra":450,"Ġat":451,"gether":452,"Ġcat":453,"Ġdid":454,"Ġre":455,"ur":456,"Ġtogether":457,"ack":458,"Ġse":459,"ly":460,"Ġtre":461,"ood":462,"Ġdog":463,"ic":464,"Ġcould":465,"ted":466,"Ġcan":467,"Ġball":468,"ard":469,"Ġgir":470,"Ġtheir":471,"ark":472,"Ġgirl":473,"Ġplayed":474,"ec":475,"my":476,"Ġhim":477,"Ġgo":478,"way":479,"Ġro":480,"?\"":481,"hed":482,"ain":483,"Ġkn":484,"Ġle":485,"Ġout":486,"hen":487,"Ġare":488,"Ġfr":489,"um":490,"'t":491,"Ġthem":492,"Ġboy":493,"Ġsad":494,"ul":495,"ax":496,"Ġtree":497,"other":498,"oug":499,"Ġman":500,"Ġloved":501,"Ġhave":502,"Ġcl":503,"Ġfound":504,"Ġlooked":505,"Ġsp":506,"ĠSue":507,"Ġstar":508,"Ġsc":509,"one":510,"Ġback":511,"own":512,"hing":513,"are":514,"ĠMax":515,"Ġlike":516,"Ġbec":517,"side":518,"ful":519,"Ġme":520,"op":521,"ong":522,"Ġpark":523,"Ġwould":524,"ight":525,"Ġliked":526,"round":527,"ĠOne":528,"elt":529,"Ġfa":530,"Ġcar":531,"Ġmake":532,"ell":533,"ĠBut":534,"Ġfelt":535,"Ġla":536,"ĠW":537,"Ġasked":538,"ĠSam":539,"You":540,"ared":541,"omet":542,"ice":543,"Ġcame":544,"Ġnew":545,"Ġstarted":546,"ag":547,"Ġsee":548,"Ġno":549,"ought":550,"ouse":551,"ĠBen":552,"Ġal":553,"iled":554,"Ġag":555,"Ġother":556,"Ġgood":557,"pot":558,"Ġsomet":559,"Ġsmall":560,"Ġbr":561,"ob":562,"ss":563,"Ġsmiled":564,"ade":565,"ried":566,"ings":567,"Ġsay":568,"ĠĊ":569,"Ġfind":570,"Ġwor":571,"Ġaway":572,"Ġex":573,"Ġfrom":574,"Ġthought":575,"Ġmade":576,"ĠSpot":577,"Ġwhat":578,"Ġhome":579,"Ġco":580,"Ġplaying":581,"ened":582,"Ġsomething":583,"ty":584,"Ġput":585,"Ġevery":586,"Ġwal":587,"ach":588,"Ġmu":589,"ia":590,"uc":591,"ook":592,"ie":593,"ny":594,"ĠF":595,"Ġagain":596,"Ġran":597,"Ġdown":598,"ile":599,"dd":600,"arn":601,"Ġtoys":602,"ave":603,"Ġpr":604,"king":605,"Ġscared":606,"Ġsome":607,"Ġtook":608,"Ġlaug":609,"ĠJ":610,"Ġhouse":611,"Ġfl":612,"if":613,"ab":614,"Ġaround":615,"Ġbox":616,"Ġsw":617,"ure":618,"ick":619,"Ġlearn":620,"ep":621,"ret":622,"ish":623,"oud":624,"uck":625,"Ġyour":626,"Ġlived":627,"ĠYou":628,"Ġthings":629,"Ġsun":630,"Ġthen":631,"Ġwill":632,"ew":633,"Ġbl":634,"Ġmy":635,"as":636,"Ġwhen":637,"Ġab":638,"pped":639,",\"":640,"us":641,"Ġget":642,"ank":643,"Tim":644,"Th":645,"Ġch":646,"Ġlot":647,"ucy":648,"oth":649,"ap":650,"ump":651,"ĠMia":652,"Ġwho":653,"Ġtried":654,"ist":655,"Ġfe":656,"Ġknow":657,"Ġgot":658,"ited":659,"ust":660,"Ġmany":661,"Ġabout":662,"Ġsays":663,"Ġint":664,"ally":665,"nder":666,"Ġred":667,"Ġknew":668,"Ġpret":669,"ive":670,"Ġdec":671,"Lily":672,"ise":673,"ous":674,"Ġany":675,"au":676,"ĠD":677,"ace":678,"Ġcare":679,"Ġmore":680,"Ġpic":681,"qu":682,"fter":683,"Ġbest":684,"ause":685,"Ġop":686,"Ġbecame":687,"ĠLucy":688,"Ġpo":689,"Ġwater":690,"ways":691,"âĢ":692,"fe":693,"Ġhug":694,"Ġlearned":695,"ĠBob":696,"Ġexc":697,"Ġbecause":698,"ite":699,"Ġalways":700,"Ġlook":701,"Ġoutside":702,"Ġinto":703,"Ġroom":704,"Ġboth":705,"Ġun":706,"ided":707,"ĠSo":708,"Ġshow":709,"Ġlaughed":710,"Ġeat":711,"Ġdecided":712,"ĠAnd":713,"Ġgre":714,"Ġho":715,"urp":716,"udd":717,"ant":718,"Ġpe":719,"ers":720,"Ġv":721,"ĠE":722,"ĠMom":723,"Ġjump":724,"nn":725,"Ġlong":726,"Ġone":727,"Ġke":728,"Ġthis":729,"Ġnice":730,"Ġrun":731,"Yes":732,"Ġexcited":733,"Ġfast":734,"They":735,"Tom":736,"Ġfeel":737,"Ġdad":738,"Ġtold":739,"Ġmo":740,"Ġsk":741,"Ġinside":742,"our":743,"Ġam":744,"Ġtr":745,"Ġsl":746,"ull":747,"lew":748,"Ġsor":749,"Ġtake":750,"urpr":751,"Ġrock":752,"iny":753,"Ġpretty":754,"nna":755,"Ġsurpr":756,"Ġgave":757,"Ġeach":758,"Ġgra":759,"imal":760,"ink":761,"Ġanimal":762,"Ġmuch":763,"Ġhow":764,"Wh":765,"Ġstr":766,"Ġold":767,"Ġneed":768,"But":769,"Ġthan":770,"Ġlet":771,"ven":772,"ara":773,"ro":774,"ged":775,"Ġtow":776,"ess":777,"Ġunder":778,"ĠC":779,"Ġsorry":780,"Ġor":781,"Ġwalked":782,"Ġcle":783,"and":784,"ft":785,"Ġta":786,"Ġhand":787,"ge":788,"Ġte":789,"ised":790,"og":791,"Ġfish":792,"urn":793,"urt":794,"Ġkind":795,"ff":796,"Ġclo":797,"ĠHis":798,"Ġwat":799,"ving":800,"Ġhig":801,"Ġanimals":802,"ase":803,"ĠAmy":804,"Ġjust":805,"Ġus":806,"Ġhappened":807,"ched":808,"Ġfood":809,"pl":810,"Ġflow":811,"Ġsky":812,"here":813,"Ġsn":814,"rom":815,"Ġide":816,"Ġtry":817,"Ġlist":818,"ĠWe":819,"Ġnear":820,"gry":821,"Ġdidn":822,"Ġidea":823,"Ġbet":824,"Ġen":825,"able":826,"ate":827,"ine":828,"Ġfi":829,"Ġflew":830,"eci":831,"Ġits":832,"ream":833,"Thank":834,"Ġcareful":835,"Ġshare":836,"Ġcake":837,"ex":838,"Ġheard":839,"Ġbetter":840,"Ġtw":841,"Ġstor":842,"Ġif":843,"Ġspeci":844,"Ġspecial":845,"Ġdan":846,"pec":847,"ber":848,"ion":849,"ĠTh":850,"Ġbear":851,"Ġlots":852,"Ġwind":853,"lf":854,"more":855,"Ġanymore":856,"udden":857,"Ġclean":858,"Ġnever":859,"Ġfo":860,"Ġdon":861,"Mom":862,"Ġgr":863,"Ġbug":864,"Ġtal":865,"ople":866,"Ġcom":867,"Ġhard":868,"Ġbu":869,"Ġend":870,"ĠThen":871,"Ġby":872,"Ġfly":873,"uddenly":874,"Ġmag":875,"ort":876,"Ġturn":877,"Ġfore":878,"Ġover":879,"ĠAnna":880,"ĠEvery":881,"Ġeven":882,"rm":883,"Ġlove":884,"Ġcol":885,"Ġsafe":886,"Ġpeople":887,"Ġafter":888,"Ġbad":889,"ady":890,"Ġhigh":891,"Ġfam":892,"Ġground":893,"ak":894,"Ġdoor":895,"imb":896,"Ġcome":897,"bb":898,"Ġshiny":899,"Ġproud":900,"As":901,"Ġclimb":902,"Ġopened":903,"uff":904,"Ġhurt":905,"Ġpicked":906,"Ġblue":907,"Ġloud":908,"pected":909,"Let":910,"Ġche":911,"Ġgive":912,"Ġway":913,"Ġsurprised":914,"Ġgl":915,"'m":916,"Ġunex":917,"Ġunexpected":918,"ild":919,"Ġthanked":920,"Ġcu":921,"Ġbook":922,"ummy":923,"ĠWhen":924,"ĠFrom":925,"Ġcall":926,"Ġcolor":927,"ĠHer":928,"Ġfar":929,"arden":930,"Ġgarden":931,"Ġever":932,"Ġmagic":933,"ĠK":934,"Ġpar":935,"ough":936,"kay":937,"Ġim":938,"Ġhugged":939,"Ġstill":940,"Ġplace":941,"No":942,"Ġunt":943,"ool":944,"ĠSara":945,"Ġoff":946,"age":947,"Ġma":948,"Ġsmile":949,"Ġwalk":950,"ture":951,"ĠP":952,"Ġjumped":953,"Ġfamily":954,"ĠIn":955,"Ġuntil":956,"iz":957,"unny":958,"hes":959,"Ġpa":960,"em":961,"Ġshould":962,"Ġqu":963,"Ġnow":964,"ip":965,"Ġkid":966,"ct":967,"Ġstick":968,"itty":969,"Ġstay":970,"Ġstrong":971,"Ġforest":972,"Ġsto":973,"ane":974,"Ġdra":975,"aut":976,"Ġapp":977,"uffy":978,"dy":979,"Ġbro":980,"Ġboat":981,"Ġgreat":982,"Ġsqu":983,"Ġbra":984,"Ġbeaut":985,"Ġtra":986,"xt":987,"Ġnext":988,"Ġhelped":989,"Ġjo":990,"ĠSally":991,"lease":992,"Ġhat":993,"les":994,"Ġhappily":995,"Ġpicture":996,"Ġstory":997,"iful":998,"ies":999,"Ġbeautiful":1000,"Ġlisten":1001,"ning":1002,"th":1003,"Ġshowed":1004,"Ġwhile":1005,"Ġcalled":1006,"oon":1007,"Ġmet":1008,"Ġclos":1009,"Now":1010,"Ġkids":1011,"pt":1012,"Ġopen":1013,"Ġfrog":1014,"Ġmor":1015,"Ġrem":1016,"luffy":1017,"Ġtown":1018,"Ġsoft":1019,"Ġeveryone":1020,"Can":1021,"It":1022,"ger":1023,"Ġimp":1024,"Ġbeing":1025,"He":1026,"When":1027,"Ġad":1028,"Ġstopped":1029,"rel":1030,"Ġrain":1031,"Ġangry":1032,"by":1033,"Ġyummy":1034,"Ġwatch":1035,"bit":1036,"Ġdoll":1037,"Ġca":1038,"Ġcouldn":1039,"abbit":1040,"vent":1041,"ary":1042,"ĠLet":1043,"ree":1044,"Ġtruck":1045,"Ġde":1046,"ished":1047,"ĠKitty":1048,"Ġmouse":1049,"Ġrabbit":1050,"be":1051,"dded":1052,"Ġate":1053,"ress":1054,"iss":1055,"Ġwo":1056,"ĠFluffy":1057,"Ġlost":1058,"Ġwarm":1059,"Ġslide":1060,"Ġface":1061,"Ġbrave":1062,"Ġgame":1063,"ĠWh":1064,"Ġkeep":1065,"Ġfell":1066,"fore":1067,"Ġleave":1068,"Ġflowers":1069,"Ġtwo":1070,"Ġcook":1071,"owl":1072,"Ġbed":1073,"Ġcry":1074,"Ġpus":1075,"illy":1076,"so":1077,"ock":1078,"Ġsoon":1079,"Ġnoise":1080,"Ġgreen":1081,"Ġalso":1082,"ĠR":1083,"That":1084,"Ġbunny":1085,"ear":1086,"Ġnodded":1087,"Ġwhere":1088,"gan":1089,"self":1090,"Ġfix":1091,"Ġsat":1092,"Ġhaving":1093,"ired":1094,"Hi":1095,"Ġbefore":1096,"Ġyell":1097,"âĢĿ":1098,"Ġkept":1099,"Ġhole":1100,"Ġpain":1101,"Ġhear":1102,"âĢľ":1103,"ble":1104,"day":1105,"Ġstore":1106,"What":1107,"Ġhands":1108,"Ġcatch":1109,"Look":1110,"Ġuse":1111,"irrel":1112,"Then":1113,"Ġsing":1114,"Ġfin":1115,"az":1116,"irst":1117,"Ġused":1118,"Ġmommy":1119,"Ġthr":1120,"Ġexpl":1121,"Ġfunny":1122,"Ġbirds":1123,"Ġsquirrel":1124,"Ben":1125,"ĠNow":1126,"Ġcra":1127,"Ġlooking":1128,"uch":1129,"Ġtired":1130,"Ġey":1131,"Ġgoing":1132,"Ġwait":1133,"Ġbre":1134,"Ġkit":1135,"oy":1136,"eet":1137,"aybe":1138,"leep":1139,"Ġmean":1140,"ange":1141,"thing":1142,"ught":1143,"Ġour":1144,"led":1145,"Ġpull":1146,"air":1147,"Ġdif":1148,"Ġfav":1149,"Ġsunny":1150,"Ġtri":1151,"Ġpond":1152,"ember":1153,"ĠCan":1154,"Ġhas":1155,"chen":1156,"Ġkitchen":1157,"Ġwr":1158,"Ġparty":1159,"Ġice":1160,"Ġthink":1161,"Ġflo":1162,"oh":1163,"orn":1164,"Ġwork":1165,"ting":1166,"We":1167,"ac":1168,"Ġhead":1169,"uit":1170,"Ġbus":1171,"Ġmess":1172,"Ġworked":1173,"Ġdr":1174,"ng":1175,"Ġreal":1176,"ĠDo":1177,"zy":1178,"ious":1179,"Ġokay":1180,"ohn":1181,"Ġothers":1182,"Ġsound":1183,"llow":1184,"Ġbeh":1185,"Ġmoral":1186,"Ġeyes":1187,"ath":1188,"Ġsand":1189,"Ġz":1190,"rew":1191,"Ġshared":1192,"Ġtalk":1193,"Ġadvent":1194,"Ġremember":1195,"ĠâĢľ":1196,"Ġfavor":1197,"joy":1198,"ma":1199,"Ġfavorite":1200,"Hell":1201,"Ġright":1202,"Ġask":1203,"Hello":1204,"Ġcut":1205,"Ġcuri":1206,"Ġcold":1207,"Ġri":1208,"Ġhop":1209,"Ġcon":1210,"Ġimport":1211,"Ġhill":1212,"Ġmon":1213,"lly":1214,"Ġdir":1215,"imes":1216,"Ġenjoy":1217,"Ġmaking":1218,"Ġfollow":1219,"Ġcurious":1220,"Ġvo":1221,"Ġpie":1222,"Ġbright":1223,"Ġyard":1224,"ĠG":1225,"At":1226,"Ġflower":1227,"ken":1228,"Don":1229,"Ġsweet":1230,"reed":1231,"Ġmove":1232,"Ġduck":1233,"Ġdis":1234,"Ġown":1235,"Ġrest":1236,"Ġdraw":1237,"Ġfirst":1238,"Ġimportant":1239,"Ġtop":1240,"ĠJack":1241,"Ġsho":1242,"Ġcla":1243,"Ġbegan":1244,"Ġtall":1245,"Ġpick":1246,"Ġblock":1247,"Ġwatched":1248,"ount":1249,"Ġsleep":1250,"Ġbel":1251,"Ġlady":1252,"After":1253,"Ġnight":1254,"Ġthing":1255,"Wow":1256,"ied":1257,"Ġrace":1258,"ster":1259,"Ġtail":1260,"Ġhot":1261,"fere":1262,"Ġhid":1263,"Ġhun":1264,"Ġdiffere":1265,"Ġagreed":1266,"Ġfloor":1267,"Ġhere":1268,"Ġshout":1269,"Ġstop":1270,"ect":1271,"Ġforg":1272,"Ġdark":1273,"ĠThis":1274,"Ġbag":1275,"Ġgrass":1276,"ign":1277,"Ġworry":1278,"Ġsong":1279,"Ġtable":1280,"Ġtast":1281,"Ġtell":1282,"que":1283,"Ġprin":1284,"Ġneeded":1285,"Ġleaves":1286,"aring":1287,"Ġvoice":1288,"Ġread":1289,"Ġyellow":1290,"aper":1291,"Ġfarm":1292,"ĠFin":1293,"Ġru":1294,"Ġdress":1295,"Ġtrees":1296,"Ġhair":1297,"Ġswing":1298,"Why":1299,"Ġdifferent":1300,"Ġdel":1301,"Ġadventure":1302,"Ġwalking":1303,"Ġsurprise":1304,"Ġturned":1305,"Ġplease":1306,"âĢĻ":1307,"ĠMr":1308,"Ġhungry":1309,"Max":1310,"ĠSuddenly":1311,"Ġdoes":1312,"Ġcars":1313,"ĠDad":1314,"Ġcolors":1315,"oom":1316,"Suddenly":1317,"Ġlaugh":1318,"bo":1319,"Sue":1320,"Ġcloser":1321,"ached":1322,"Sam":1323,"Ġpretend":1324,"co":1325,"Ġlion":1326,"ient":1327,"ered":1328,"ila":1329,"Ġbroken":1330,"Ġwood":1331,"Ġcried":1332,"Ġprom":1333,"Ġwet":1334,"bye":1335,"Ġpiece":1336,"ĠTimmy":1337,"Ġfriendly":1338,"Ġfull":1339,"Ġbehind":1340,"Ġtrain":1341,"isy":1342,"Ġdance":1343,"Anna":1344,"ppy":1345,"Ġtouch":1346,"Ġclimbed":1347,"Ġanother":1348,"Ġdanc":1349,"So":1350,"af":1351,"Ġgone":1352,"where":1353,"Ġapple":1354,"Ġsmell":1355,"bbed":1356,"Ġste":1357,"Ġswim":1358,"cked":1359,"Ġblocks":1360,"ater":1361,"Ġfeeling":1362,"sh":1363,"Ġpaper":1364,"ĠThat":1365,"She":1366,"Ġamaz":1367,"ĠAs":1368,"Ġant":1369,"Ġper":1370,"Ġbutter":1371,"Ġrunning":1372,"ĠJane":1373,"Ġreached":1374,"Ġhelping":1375,"Ġfair":1376,"Ġlistened":1377,"iced":1378,"Ġgoodbye":1379,"Ġready":1380,"av":1381,"Ġonly":1382,"Ġhold":1383,"Ġlight":1384,"Ġac":1385,"ray":1386,"aby":1387,"ike":1388,"ĠO":1389,"Ġroll":1390,"Sara":1391,"Ġcream":1392,"ĠBobo":1393,"Ġdri":1394,"Ġrepl":1395,"Ġsit":1396,"key":1397,"Ġpushed":1398,"Ġfight":1399,"Ġslow":1400,"Ġplan":1401,"Ġclose":1402,"red":1403,"ĠAll":1404,"Ġless":1405,"Ġdone":1406,"pe":1407,"Ġwag":1408,"Ġowl":1409,"Ġwall":1410,"Ġcool":1411,"Ġsees":1412,"Ġmust":1413,"Ġglad":1414,"Ġfruit":1415,"Ġwise":1416,"Ġtiny":1417,"ield":1418,"Ġmoment":1419,"Ġwonder":1420,"Ġtrying":1421,"Ġstuck":1422,"ather":1423,"Ġdream":1424,"In":1425,"Ġdin":1426,"Ġthrough":1427,"ash":1428,"Ġwished":1429,"Ġpen":1430,"Ġfire":1431,"ames":1432,"Ġreach":1433,"Ġbar":1434,"Ġthank":1435,"Ġbaby":1436,"Ġbeen":1437,"Ġwindow":1438,"Ġjoin":1439,"Ġexplore":1440,"ott":1441,"Ġlooks":1442,"Ġdoing":1443,"ĠEveryone":1444,"Ġar":1445,"Ġbit":1446,"Ġbuy":1447,"Ġshouted":1448,"Ġair":1449,"Mia":1450,"Ġhide":1451,"Ġbuild":1452,"ĠMommy":1453,"Ġnest":1454,"Ġswam":1455,"Ġscary":1456,"Ġfall":1457,"Ġcoming":1458,"Ġcloud":1459,"Ġland":1460,"Ġbran":1461,"Ġwin":1462,"Ġblew":1463,"oney":1464,"Ġseen":1465,"andy":1466,"Ġperf":1467,"ask":1468,"Ġchild":1469,"Ġdirty":1470,"Ġheld":1471,"Ġbooks":1472,"avy":1473,"ph":1474,"Ġbigger":1475,"Ġleft":1476,"Ġquick":1477,"Ġreplied":1478,"Ġmat":1479,"ely":1480,"Ġunderst":1481,"Ġmight":1482,"Ġtreat":1483,"ndma":1484,"Ġcolorful":1485,"Ġgrabbed":1486,"Ġpulled":1487,"Ġwhy":1488,"Ġturns":1489,"Okay":1490,"Ġdro":1491,"Ġbutterf":1492,"ized":1493,"Ġremembered":1494,"Ġfill":1495,"icy":1496,"Ġname":1497,"ucky":1498,"Ġchair":1499,"Ġcup":1500,"Ġbroke":1501,"Ġcast":1502,"orm":1503,"Ġcount":1504,"Ġsometimes":1505,"aisy":1506,"Ġsure":1507,"Ġthree":1508,"oup":1509,"ation":1510,"Ġspl":1511,"Ġhopped":1512,"Ġpink":1513,"ton":1514,"Ġstayed":1515,"Ġsnow":1516,"Ġjob":1517,"Ġclapped":1518,"Oh":1519,"up":1520,"Ġgames":1521,"der":1522,"Ġbott":1523,"Ġgif":1524,"ee":1525,"Ġwaited":1526,"'re":1527,"ĠThere":1528,"Ġplant":1529,"Ġnoticed":1530,"Ġgrow":1531,"Ġballoon":1532,"Ġlesson":1533,"ix":1534,"Ġanything":1535,"Ġpictures":1536,"Ġwoods":1537,"Ġmout":1538,"Ġmouth":1539,"ĠAfter":1540,"Ġpaint":1541,"Ġset":1542,"Ġwaved":1543,"uddy":1544,"ower":1545,"Ġenjoyed":1546,"room":1547,"Ġspot":1548,"Ġalone":1549,"Ġpot":1550,"Ġcont":1551,"This":1552,"Ġsea":1553,"Ġbrother":1554,"ds":1555,"Ġlikes":1556,"art":1557,"oun":1558,"Her":1559,"amp":1560,"Ġtight":1561,"\".":1562,"Ġthrew":1563,"Ġyear":1564,"Ġheavy":1565,"Ġwhite":1566,"Ġfollowed":1567,"Ġgent":1568,"Ġquickly":1569,"Ġbutterfly":1570,"ins":1571,"Spot":1572,"Ġmiss":1573,"Ġcookies":1574,"Ġju":1575,"ape":1576,"Ġdeep":1577,"asure":1578,"olly":1579,"Ġeverywhere":1580,"de":1581,"Lucy":1582,"ze":1583,"Ġbee":1584,"Ġpat":1585,"oe":1586,"ĠJohn":1587,"aught":1588,"ries":1589,"Ġmar":1590,"Bob":1591,"Ġworld":1592,"cle":1593,"ister":1594,"Ġclot":1595,"Ġwrong":1596,"Ġclothes":1597,"Ġcastle":1598,"Ġcre":1599,"Ġwear":1600,"less":1601,"lc":1602,"Ġpu":1603,"ross":1604,"Ġmum":1605,"Ġbutton":1606,"Ġleaf":1607,"iet":1608,"Ġve":1609,"Ġnap":1610,"ĠBuddy":1611,"ner":1612,"Ġmix":1613,"Ġkey":1614,"Ġquiet":1615,"arent":1616,"Ġmakes":1617,"ang":1618,"Ġbrought":1619,"Ġround":1620,"row":1621,"Ġparent":1622,"rot":1623,"ued":1624,"Ġwants":1625,"ully":1626,"Ġwell":1627,"Ġhimself":1628,"ĠDaisy":1629,"os":1630,"Ġwon":1631,"Ġride":1632,"Ġdelic":1633,"Ġfield":1634,"man":1635,"Ġdanced":1636,"Ġarm":1637,"Ġbreak":1638,"ĠLila":1639,"Ġtower":1640,"Do":1641,"Ġsign":1642,"ĠWhat":1643,"fully":1644,"Ġhit":1645,"Ġsnack":1646,"Ġdrag":1647,"thy":1648,"Ġfaster":1649,"Ġking":1650,"Ġgift":1651,"Ġtalked":1652,"Ġforgot":1653,"Ġwish":1654,"Ġbeach":1655,"Ġleg":1656,"gg":1657,"Ġsister":1658,"Ġriver":1659,"Ġmus":1660,"cess":1661,"ence":1662,"Ġfinished":1663,"Ġbranch":1664,"Ġdry":1665,"Ġcomp":1666,"leph":1667,"cy":1668,"ves":1669,"itten":1670,"Ġsharing":1671,"From":1672,"Ġbike":1673,"Ġpol":1674,"ĠInside":1675,"Ġdinner":1676,"Ġdragon":1677,"Ġfur":1678,"ards":1679,"Ġra":1680,"Ġdanger":1681,"Ġrel":1682,"Ġem":1683,"Ġbor":1684,"Ġreally":1685,"ipp":1686,"Ġvis":1687,"Ġunderstand":1688,"Ġshin":1689,"ĠTo":1690,"ance":1691,"Ġblack":1692,"John":1693,"ren":1694,"Ġbottle":1695,"Ġmonkey":1696,"Ġfox":1697,"His":1698,"eddy":1699,"Ġmonster":1700,"Ġpig":1701,"Ġsmart":1702,"ĠAt":1703,"Ġpoin":1704,"Amy":1705,"Ġworried":1706,"Ġrocks":1707,"Ġcontin":1708,"Ġgu":1709,"Ġcarefully":1710,"Ġbowl":1711,"Ġsomeone":1712,"imi":1713,"ctor":1714,"Ġfairy":1715,"Ġtoday":1716,"Ġatt":1717,"ast":1718,"Ġfilled":1719,"Ġside":1720,"Ġpudd":1721,"Ġeating":1722,"Ġel":1723,"Ġwelc":1724,"ush":1725,"ses":1726,"Ġboun":1727,"Ġcow":1728,"Ġgi":1729,"vel":1730,"itting":1731,"Ġbrown":1732,"Ġsnake":1733,"ead":1734,"Ġwhe":1735,"Ġpromised":1736,"Ġfan":1737,"Ġsilly":1738,"Ġpet":1739,"Ġhappen":1740,"While":1741,"Just":1742,"Ġeverything":1743,"Ġyes":1744,"ts":1745,"Ġres":1746,"ĠMaybe":1747,"ĠSoon":1748,"Ġparents":1749,"Ġsoup":1750,"Ġmusic":1751,"Ġvisit":1752,"Ġmud":1753,"Ġletter":1754,"Ġfree":1755,"ated":1756,"Ġelse":1757,"Ġpieces":1758,"Ġroad":1759,"Ġchildren":1760,"Ġbite":1761,"stead":1762,"Ġsang":1763,"Ġshop":1764,"Ġcontinued":1765,"Fin":1766,"Ġtalking":1767,"Ġkite":1768,"Ġperfect":1769,"zz":1770,"Ġegg":1771,"Ġflying":1772,"Ġsmiles":1773,"ĠBilly":1774,"Ġthrow":1775,"Ġrealized":1776,"Ġmail":1777,"Ġear":1778,"ĠSarah":1779,"ord":1780,"Ġwords":1781,"ĠEm":1782,".âĢĿ":1783,"Ġamazing":1784,"cket":1785,"Ġjar":1786,"Ġlaughing":1787,"Ġwagged":1788,"Ġque":1789,"Ġorange":1790,"Ġsec":1791,"Ġmoved":1792,"Ġsitting":1793,"Ġenough":1794,"Ġclosed":1795,"ĠZ":1796,"Ġpass":1797,"Ġmother":1798,"Ġwithout":1799,"Ġshining":1800,"gly":1801,"Ġsmo":1802,"Ġbuck":1803,"Ġstand":1804,"Ġcrab":1805,"Ġsail":1806,"Ġrope":1807,"Ġdangerous":1808,"fort":1809,"Ġbath":1810,"Ġstrange":1811,"Ġbarked":1812,"Ġsecret":1813,"Ġstu":1814,"ĠMimi":1815,"Ġdrink":1816,"Ġtasty":1817,"unch":1818,"Ġwelcome":1819,"fish":1820,"ella":1821,"Ġpaw":1822,"used":1823,"iver":1824,"board":1825,"Ġcrying":1826,"Ġce":1827,"Ġheal":1828,"Ġwhist":1829,"Ġpast":1830,"Ġlon":1831,"ises":1832,"Ġcandy":1833,"Ġliving":1834,"ĠJoe":1835,"Ġ-":1836,"Ġhigher":1837,"Maybe":1838,"ches":1839,"Ġlonely":1840,"Ġpre":1841,"ĠCh":1842,"Ġowner":1843,"Ġshoes":1844,"Ġbelie":1845,"Ġsack":1846,"Ġfarmer":1847,"Please":1848,"Ġmorning":1849,"Ġtom":1850,"arm":1851,"ato":1852,"chool":1853,"ĠJen":1854,"gy":1855,"Ġswings":1856,"Ġdelicious":1857,"Ġpurp":1858,"Ġschool":1859,"ract":1860,"isk":1861,"llie":1862,"Ġscream":1863,"Ġteac":1864,"ible":1865,"Ġpush":1866,"Ġfinally":1867,"!âĢĿ":1868,"Ġph":1869,"Ġstone":1870,"Ġgrandma":1871,"Ġrolled":1872,"lder":1873,"Mommy":1874,"lephant":1875,"Ġpuddle":1876,"ich":1877,"Ġstre":1878,"Ġdolls":1879,"me":1880,"ĠBl":1881,"Ġblank":1882,"Ġgetting":1883,"ire":1884,"Ġlake":1885,"ama":1886,"Ġasks":1887,"Ġpurple":1888,"lla":1889,"asket":1890,"Ġmad":1891,"Ġshell":1892,"Ġtrou":1893,"Ġyears":1894,"ased":1895,"Ġcaught":1896,"Ġblanket":1897,"Ġcorn":1898,"set":1899,"Ġtreasure":1900,"Ġwore":1901,"Ġmoney":1902,"Ġruns":1903,"ub":1904,"Ġbasket":1905,"Ġhoped":1906,"Ġpile":1907,"ons":1908,"Ġsame":1909,"iskers":1910,"eo":1911,"Ġsinging":1912,"app":1913,"Ġherself":1914,"ey":1915,"Ġwings":1916,"Ġpers":1917,"Ġapples":1918,"cks":1919,"Ġben":1920,"Ġcute":1921,"br":1922,"Ġbat":1923,"Ġmine":1924,"ĠTommy":1925,"Ġje":1926,"igh":1927,"Ġplane":1928,"Ġgentle":1929,"Ġcray":1930,"Ġcarrot":1931,"Ġelephant":1932,"Ġteacher":1933,"Ġcoat":1934,"Ġpill":1935,"Ġsear":1936,"Ġballs":1937,"Ġdropped":1938,"Ġstart":1939,"Ġfit":1940,"Ġteddy":1941,"Ġdays":1942,"Ġcour":1943,"irth":1944,"irthday":1945,"Ġdoctor":1946,"Finally":1947,"ined":1948,"Ġwar":1949,"Ġcourse":1950,"Ġforever":1951,"Ġjoy":1952,"Ġwoke":1953,"aughty":1954,"Ġnaughty":1955,"Ġhiding":1956,"Ġcard":1957,"Ġseed":1958,"Ġmin":1959,"Ġbring":1960,"Ġpromise":1961,"ilk":1962,"ĠWhiskers":1963,"Ġmost":1964,"Ġarri":1965,"Ġteach":1966,"Ġband":1967,"Ġcr":1968,"Ġspin":1969,"Ġcookie":1970,"umpy":1971,"ol":1972,"Ġfence":1973,"ator":1974,"Ġshap":1975,"Ġchee":1976,"Ġrob":1977,"Ġbush":1978,"ĠGra":1979,"ĠBlue":1980,"Ġlunch":1981,"Ġmilk":1982,"Ġshr":1983,"Ġthinks":1984,"Ġbirthday":1985,"Ġugly":1986,"Ġeas":1987,"arp":1988,"Ġnose":1989,"Ġtouc":1990,"ose":1991,"ĠThank":1992,"Ġjuice":1993,"Ġob":1994,"Ġvill":1995,"Ġbow":1996,"Ġgrew":1997,"Ġpop":1998,"Ġbelong":1999,"sw":2000,"Ġansw":2001,"Ġshapes":2002,"fused":2003,"ipped":2004,"itch":2005,"Ġsharp":2006,"ĠFred":2007,"ail":2008,"ass":2009,"Ġcreat":2010,"Ġyoung":2011,"Ġheart":2012,"sy":2013,"irt":2014,"umber":2015,"Ġbench":2016,"ier":2017,"ĠBella":2018,"Ġstreet":2019,"'ll":2020,"bow":2021,"ĠLeo":2022,"Ġseem":2023,"Jack":2024,"Ġbone":2025,"Ġwra":2026,"Ġlate":2027,"Ġmark":2028,"erry":2029,"Ġable":2030,"ale":2031,"ball":2032,"sc":2033,"eter":2034,"Ġbelieve":2035,"Ġrocket":2036,"Ġzoom":2037,"Ġbucket":2038,"Ġcoin":2039,"Ġbread":2040,"Ġpower":2041,"Ġpocket":2042,"Ġmagical":2043,"Ġdirt":2044,"Ġrobot":2045,"Ġinc":2046,"Ġshy":2047}