#version: 0.2
Ġ t
h e
Ġ a
Ġ s
Ġ w
Ġt he
n d
e d
Ġ b
Ġt o
Ġa nd
Ġ h
Ġ f
Ġ T
i n
Ġw a
r e
i t
o u
Ġ l
Ġ d
Ġ c
Ġ p
a y
Ġ m
e r
Ġwa s
ĠT he
o m
Ġ he
i s
Ġ n
i m
a r
o n
Ġs a
l l
i d
Ġh a
Ġ g
a t
Ġ S
in g
o t
e n
a n
l e
o r
i r
a m
e t
Ġ H
Ġ it
Ġt h
i g
ĠThe y
Ġp l
Ġ in
i l
ĠH e
Ġ "
o w
v er
r i
Ġ u
u t
Ġpl ay
it h
Ġsa id
Ġb e
Ġd ay
Ġw ith
p p
O n
Ġ o
Ġ y
o o
k ed
Ġ r
Ġhe r
c e
l d
Ġh is
ĠT im
Ġ I
ĠS he
Ġs t
k e
Ġ e
Ġb ig
n t
c k
ver y
Ġy ou
s t
v e
e nd
u n
Ġha pp
Ġ on
a ll
ri end
Ġf riend
Ġthe y
Ġ L
il y
Ġw e
Ġha d
Ġu p
Ġl i
Ġn ot
he r
Ġwa nt
it t
Ġo f
a d
Ġd o
Ġ B
s e
Ġhapp y
en t
Ġ very
Ġ M
e s
Ġsa w
On e
Ġth at
ou ld
' s
Ġf or
itt le
Ġm om
Ġl ittle
Ġs o
Ġs h
Ġs he
im e
c h
Ġn am
Ġt ime
Ġ k
Ġn e
ou nd
. "
Ġthe re
Ġnam ed
Ġb o
Ġs m
Ġwe re
Ġwant ed
ĠL ily
Ġfriend s
ou t
ir d
Ġb ut
v ed
h t
! "
T he
ĠT om
Ġb ird
e l
a ke
Ġa n
a l
Ġto o
om e
Ġw ent
Ġw h
id e
On ce
Ġa ll
ĠI t
Ġhe l
u g
u e
Ġhel p
Ġ is
Ġl oo
Ġ A
Ġup on
Ġl o
t er
r y
Ġto y
o re
Ġf un
i nd
g et
i ll
am e
Ġa s
Ġ j
r a
Ġa t
get her
Ġc at
Ġd id
Ġ re
u r
Ġto gether
a ck
Ġs e
l y
Ġt re
oo d
Ġdo g
i c
Ġc ould
t ed
Ġc an
Ġb all
ar d
Ġg ir
Ġthe ir
ar k
Ġgir l
Ġplay ed
e c
m y
Ġh im
Ġg o
w ay
Ġr o
? "
he d
a in
Ġk n
Ġl e
Ġ out
he n
Ġa re
Ġf r
u m
' t
Ġthe m
Ġbo y
Ġsa d
u l
a x
Ġtre e
ot her
ou g
Ġm an
Ġlo ved
Ġha ve
Ġc l
Ġf ound
Ġloo ked
Ġs p
ĠS ue
Ġst ar
Ġs c
on e
Ġb ack
ow n
h ing
a re
ĠM ax
Ġli ke
Ġbe c
s ide
f ul
Ġm e
o p
on g
Ġp ark
Ġw ould
ig ht
Ġli ked
r ound
Ġ One
el t
Ġf a
Ġc ar
Ġm ake
e ll
ĠB ut
Ġf elt
Ġl a
Ġ W
Ġas ked
ĠS am
Y ou
ar ed
om et
i ce
Ġc ame
Ġne w
Ġstar ted
a g
Ġse e
Ġn o
oug ht
ou se
ĠB en
Ġa l
il ed
Ġa g
Ġ other
Ġg ood
p ot
Ġs omet
Ġsm all
Ġb r
o b
s s
Ġsm iled
ad e
ri ed
ing s
Ġs ay
Ġ Ċ
Ġf ind
Ġw or
Ġa way
Ġe x
Ġfr om
Ġth ought
Ġm ade
ĠS pot
Ġwh at
Ġh ome
Ġc o
Ġplay ing
en ed
Ġsomet hing
t y
Ġp ut
Ġe very
Ġwa l
a ch
Ġm u
i a
u c
oo k
i e
n y
Ġ F
Ġag ain
Ġr an
Ġd own
i le
d d
ar n
Ġtoy s
a ve
Ġp r
k ing
Ġsc ared
Ġs ome
Ġtoo k
Ġla ug
Ġ J
Ġh ouse
Ġf l
i f
a b
Ġa round
Ġbo x
Ġs w
u re
i ck
Ġle arn
e p
re t
is h
ou d
u ck
Ġyou r
Ġli ved
Ġ You
Ġth ings
Ġs un
Ġthe n
Ġw ill
e w
Ġb l
Ġm y
a s
Ġw hen
Ġa b
pp ed
, "
u s
Ġg et
an k
T im
T h
Ġc h
Ġl ot
uc y
ot h
a p
um p
ĠM ia
Ġwh o
Ġt ried
is t
Ġf e
Ġkn ow
Ġg ot
it ed
u st
Ġman y
Ġab out
Ġsay s
Ġin t
all y
nd er
Ġr ed
Ġkn ew
Ġp ret
i ve
Ġd ec
L ily
is e
ou s
Ġan y
a u
Ġ D
a ce
Ġc are
Ġm ore
Ġp ic
q u
f ter
Ġbe st
au se
Ġo p
Ġbec ame
ĠL ucy
Ġp o
Ġwa ter
way s
â Ģ
f e
Ġh ug
Ġlearn ed
ĠB ob
Ġex c
Ġbec ause
it e
Ġal ways
Ġloo k
Ġout side
Ġint o
Ġro om
Ġb oth
Ġu n
id ed
ĠS o
Ġsh ow
Ġlaug hed
Ġe at
Ġdec ided
ĠA nd
Ġg re
Ġh o
ur p
u dd
an t
Ġp e
er s
Ġ v
Ġ E
ĠM om
Ġj ump
n n
Ġl ong
Ġon e
Ġ ke
Ġth is
Ġn ice
Ġr un
Y es
Ġexc ited
Ġfa st
The y
T om
Ġfe el
Ġd ad
Ġto ld
Ġm o
Ġs k
Ġin side
ou r
Ġa m
Ġt r
Ġs l
u ll
le w
Ġs or
Ġt ake
urp r
Ġro ck
in y
Ġpret ty
nn a
Ġs urpr
Ġg ave
Ġe ach
Ġg ra
im al
in k
Ġan imal
Ġmu ch
Ġh ow
W h
Ġst r
Ġo ld
Ġne ed
B ut
Ġth an
Ġl et
v en
ar a
r o
g ed
Ġto w
es s
Ġu nder
Ġ C
Ġsor ry
Ġ or
Ġwal ked
Ġc le
a nd
f t
Ġt a
Ġha nd
g e
Ġt e
is ed
o g
Ġf ish
ur n
ur t
Ġk ind
f f
Ġcl o
ĠH is
Ġwa t
v ing
Ġh ig
Ġanimal s
a se
ĠA my
Ġj ust
Ġu s
Ġhapp ened
c hed
Ġf ood
p l
Ġfl ow
Ġsk y
he re
Ġs n
r om
Ġ ide
Ġt ry
Ġl ist
ĠW e
Ġne ar
g ry
Ġdid n
Ġide a
Ġb et
Ġ en
ab le
at e
in e
Ġf i
Ġf lew
ec i
Ġit s
re am
Th ank
Ġcare ful
Ġsh are
Ġc ake
e x
Ġhe ard
Ġbet ter
Ġt w
Ġst or
Ġ if
Ġsp eci
Ġspeci al
Ġd an
p ec
b er
i on
ĠT h
Ġbe ar
Ġlot s
Ġw ind
l f
m ore
Ġany more
udd en
Ġcle an
Ġne ver
Ġf o
Ġd on
M om
Ġg r
Ġb ug
Ġt al
op le
Ġc om
Ġh ard
Ġb u
Ġe nd
ĠThe n
Ġb y
Ġf ly
udden ly
Ġm ag
or t
Ġt urn
Ġf ore
Ġo ver
ĠA nna
ĠE very
Ġe ven
r m
Ġlo ve
Ġco l
Ġsa fe
Ġpe ople
Ġa fter
Ġb ad
ad y
Ġhig h
Ġf am
Ġg round
a k
Ġdo or
im b
Ġc ome
b b
Ġsh iny
Ġpr oud
A s
Ġcl imb
Ġop ened
u ff
Ġh urt
Ġpic ked
Ġbl ue
Ġl oud
pec ted
L et
Ġc he
Ġg ive
Ġwa y
Ġsurpr ised
Ġg l
' m
Ġun ex
Ġunex pected
il d
Ġthan ked
Ġc u
Ġb ook
um my
ĠW hen
ĠF rom
Ġc all
Ġcol or
ĠH er
Ġf ar
ard en
Ġg arden
Ġe ver
Ġmag ic
Ġ K
Ġp ar
oug h
k ay
Ġ im
Ġhug ged
Ġst ill
Ġpl ace
N o
Ġu nt
oo l
ĠS ara
Ġof f
ag e
Ġm a
Ġsm ile
Ġwal k
t ure
Ġ P
Ġjump ed
Ġfam ily
ĠI n
Ġunt il
i z
un ny
he s
Ġp a
e m
Ġsh ould
Ġ qu
Ġn ow
i p
Ġk id
c t
Ġst ick
itt y
Ġst ay
Ġstr ong
Ġfore st
Ġst o
an e
Ġd ra
a ut
Ġa pp
uff y
d y
Ġbr o
Ġbo at
Ġgre at
Ġs qu
Ġb ra
Ġbe aut
Ġt ra
x t
Ġne xt
Ġhelp ed
Ġj o
ĠS ally
le ase
Ġha t
le s
Ġhapp ily
Ġpic ture
Ġstor y
i ful
i es
Ġbeaut iful
Ġlist en
n ing
t h
Ġshow ed
Ġwh ile
Ġcall ed
o on
Ġm et
Ġclo s
N ow
Ġkid s
p t
Ġop en
Ġfr og
Ġm or
Ġre m
l uffy
Ġtow n
Ġso ft
Ġevery one
C an
I t
g er
Ġim p
Ġbe ing
H e
W hen
Ġa d
Ġsto pped
re l
Ġr ain
Ġan gry
b y
Ġy ummy
Ġwat ch
b it
Ġdo ll
Ġc a
Ġcould n
ab bit
v ent
ar y
ĠL et
re e
Ġtr uck
Ġd e
is hed
ĠK itty
Ġm ouse
Ġr abbit
b e
dd ed
Ġat e
re ss
is s
Ġw o
ĠF luffy
Ġlo st
Ġwa rm
Ġsl ide
Ġfa ce
Ġbra ve
Ġg ame
ĠW h
Ġke ep
Ġf ell
f ore
Ġle ave
Ġflow ers
Ġtw o
Ġc ook
ow l
Ġb ed
Ġc ry
Ġp us
ill y
s o
o ck
Ġso on
Ġno ise
Ġgre en
Ġal so
Ġ R
Th at
Ġb unny
e ar
Ġno dded
Ġw here
g an
se lf
Ġfi x
Ġsa t
Ġha ving
ir ed
H i
Ġbe fore
Ġy ell
âĢ Ŀ
Ġke pt
Ġho le
Ġp ain
Ġhe ar
âĢ ľ
b le
d ay
Ġst ore
Wh at
Ġhand s
Ġcat ch
L ook
Ġu se
ir rel
The n
Ġs ing
Ġf in
a z
ir st
Ġus ed
Ġmom my
Ġth r
Ġex pl
Ġfun ny
Ġbird s
Ġsqu irrel
B en
Ġ Now
Ġc ra
Ġloo king
u ch
Ġt ired
Ġe y
Ġgo ing
Ġwa it
Ġb re
Ġk it
o y
e et
ay be
le ep
Ġme an
an ge
t hing
ug ht
Ġ our
l ed
Ġp ull
a ir
Ġd if
Ġfa v
Ġsun ny
Ġt ri
Ġpo nd
em ber
ĠC an
Ġha s
c hen
Ġkit chen
Ġw r
Ġpar ty
Ġ ice
Ġth ink
Ġfl o
o h
or n
Ġwor k
t ing
W e
a c
Ġhe ad
u it
Ġb us
Ġm ess
Ġwor ked
Ġd r
n g
Ġre al
ĠD o
z y
i ous
Ġo kay
oh n
Ġother s
Ġs ound
ll ow
Ġbe h
Ġmor al
Ġey es
at h
Ġsa nd
Ġ z
re w
Ġsh ared
Ġtal k
Ġad vent
Ġrem ember
Ġ âĢľ
Ġfav or
j oy
m a
Ġfavor ite
H ell
Ġr ight
Ġas k
Hell o
Ġc ut
Ġcu ri
Ġco ld
Ġ ri
Ġh op
Ġc on
Ġimp ort
Ġh ill
Ġm on
ll y
Ġd ir
im es
Ġen joy
Ġma king
Ġfo llow
Ġcuri ous
Ġv o
Ġp ie
Ġbr ight
Ġy ard
Ġ G
A t
Ġflow er
k en
D on
Ġsw eet
re ed
Ġmo ve
Ġd uck
Ġd is
Ġ own
Ġre st
Ġdra w
Ġf irst
Ġimport ant
Ġto p
ĠJ ack
Ġsh o
Ġcl a
Ġbe gan
Ġt all
Ġp ick
Ġbl ock
Ġwat ched
ou nt
Ġs leep
Ġbe l
Ġl ady
A fter
Ġn ight
Ġth ing
W ow
i ed
Ġr ace
st er
Ġta il
Ġh ot
fe re
Ġh id
Ġh un
Ġdif fere
Ġag reed
Ġflo or
Ġhe re
Ġsh out
Ġst op
ec t
Ġfor g
Ġd ark
ĠTh is
Ġb ag
Ġgra ss
ig n
Ġwor ry
Ġs ong
Ġt able
Ġta st
Ġt ell
q ue
Ġpr in
Ġneed ed
Ġleave s
ar ing
Ġvo ice
Ġre ad
Ġyell ow
ap er
Ġfar m
ĠF in
Ġr u
Ġd ress
Ġtre es
Ġha ir
Ġsw ing
Wh y
Ġdiffere nt
Ġd el
Ġadvent ure
Ġwal king
Ġsurpr ise
Ġturn ed
Ġp lease
âĢ Ļ
ĠM r
Ġhun gry
M ax
ĠS uddenly
Ġdo es
Ġcar s
ĠD ad
Ġcolor s
o om
S uddenly
Ġlaug h
b o
S ue
Ġclos er
a ched
S am
Ġpret end
c o
Ġli on
i ent
er ed
il a
Ġbro ken
Ġw ood
Ġc ried
Ġpr om
Ġw et
by e
Ġpie ce
ĠTim my
Ġfriend ly
Ġf ull
Ġbeh ind
Ġtra in
is y
Ġdan ce
A nna
pp y
Ġto uch
Ġclimb ed
Ġan other
Ġdan c
S o
a f
Ġg one
w here
Ġapp le
Ġsm ell
bb ed
Ġst e
Ġsw im
c ked
Ġblock s
at er
Ġfeel ing
s h
Ġp aper
ĠTh at
S he
Ġam az
ĠA s
Ġa nt
Ġp er
Ġbut ter
Ġrun ning
ĠJ ane
Ġre ached
Ġhelp ing
Ġfa ir
Ġlist ened
ic ed
Ġgood bye
Ġre ady
a v
Ġon ly
Ġho ld
Ġl ight
Ġa c
r ay
ab y
i ke
Ġ O
Ġro ll
S ara
Ġc ream
ĠBob o
Ġd ri
Ġre pl
Ġs it
ke y
Ġpus hed
Ġf ight
Ġsl ow
Ġpl an
Ġclo se
r ed
ĠA ll
Ġl ess
Ġd one
p e
Ġwa g
Ġ owl
Ġwa ll
Ġc ool
Ġse es
Ġmu st
Ġgl ad
Ġfr uit
Ġw ise
Ġt iny
ie ld
Ġmom ent
Ġwo nder
Ġtry ing
Ġst uck
at her
Ġd ream
I n
Ġd in
Ġthr ough
as h
Ġw ished
Ġp en
Ġfi re
am es
Ġre ach
Ġb ar
Ġth ank
Ġb aby
Ġbe en
Ġwind ow
Ġjo in
Ġexpl ore
ot t
Ġlook s
Ġdo ing
ĠEvery one
Ġa r
Ġb it
Ġbu y
Ġshout ed
Ġa ir
M ia
Ġh ide
Ġbu ild
ĠMom my
Ġne st
Ġsw am
Ġsc ary
Ġf all
Ġcom ing
Ġcl oud
Ġla nd
Ġbr an
Ġw in
Ġb lew
one y
Ġse en
and y
Ġper f
as k
Ġch ild
Ġdir ty
Ġhe ld
Ġbook s
av y
p h
Ġbig ger
Ġle ft
Ġqu ick
Ġrepl ied
Ġm at
el y
Ġunder st
Ġm ight
Ġtre at
nd ma
Ġcolor ful
Ġgra bbed
Ġpull ed
Ġwh y
Ġturn s
O kay
Ġd ro
Ġbutter f
iz ed
Ġremember ed
Ġf ill
ic y
Ġnam e
uck y
Ġch air
Ġcu p
Ġbro ke
Ġca st
or m
Ġc ount
Ġsomet imes
a isy
Ġs ure
Ġth ree
ou p
at ion
Ġsp l
Ġho pped
Ġp ink
t on
Ġstay ed
Ġsn ow
Ġj ob
Ġcla pped
O h
u p
Ġg ames
d er
Ġb ott
Ġg if
e e
Ġwa ited
' re
ĠThe re
Ġpl ant
Ġnot iced
Ġgr ow
Ġball oon
Ġless on
i x
Ġany thing
Ġpicture s
Ġwood s
Ġm out
Ġmout h
ĠA fter
Ġpain t
Ġs et
Ġwa ved
udd y
ow er
Ġenjoy ed
ro om
Ġsp ot
Ġal one
Ġp ot
Ġcon t
Th is
Ġse a
Ġbr other
d s
Ġlike s
ar t
ou n
H er
am p
Ġt ight
" .
Ġth rew
Ġy ear
Ġhe avy
Ġwh ite
Ġfollow ed
Ġg ent
Ġquick ly
Ġbutterf ly
in s
S pot
Ġm iss
Ġcook ies
Ġj u
ap e
Ġde ep
as ure
o lly
Ġevery where
d e
L ucy
z e
Ġbe e
Ġp at
o e
ĠJ ohn
a ught
ri es
Ġm ar
B ob
Ġwor ld
c le
is ter
Ġcl ot
Ġwr ong
Ġclot hes
Ġcast le
Ġc re
Ġwe ar
le ss
l c
Ġp u
ro ss
Ġm um
Ġbut ton
Ġle af
i et
Ġ ve
Ġn ap
ĠB uddy
n er
Ġm ix
Ġke y
Ġqu iet
are nt
Ġmake s
an g
Ġbr ought
Ġr ound
r ow
Ġp arent
r ot
u ed
Ġwant s
ull y
Ġwe ll
Ġhim self
ĠD aisy
o s
Ġw on
Ġr ide
Ġdel ic
Ġf ield
m an
Ġdanc ed
Ġa rm
Ġbre ak
ĠL ila
Ġtow er
D o
Ġs ign
ĠWh at
f ully
Ġh it
Ġsn ack
Ġdra g
th y
Ġfast er
Ġk ing
Ġgif t
Ġtal ked
Ġforg ot
Ġw ish
Ġbe ach
Ġle g
g g
Ġs ister
Ġri ver
Ġmu s
ce ss
en ce
Ġfin ished
Ġbran ch
Ġd ry
Ġcom p
le ph
c y
ve s
itt en
Ġsh aring
F rom
Ġb ike
Ġpo l
ĠIn side
Ġdin ner
Ġdrag on
Ġf ur
ard s
Ġr a
Ġdan ger
Ġre l
Ġe m
Ġb or
Ġre ally
i pp
Ġv is
Ġunderst and
Ġsh in
ĠT o
an ce
Ġbl ack
J ohn
re n
Ġbott le
Ġmon key
Ġfo x
H is
ed dy
Ġmon ster
Ġp ig
Ġsm art
ĠA t
Ġpo in
A my
Ġwor ried
Ġrock s
Ġcont in
Ġg u
Ġcare fully
Ġb owl
Ġsome one
im i
ct or
Ġfair y
Ġto day
Ġat t
a st
Ġfill ed
Ġs ide
Ġp udd
Ġeat ing
Ġe l
Ġwe lc
us h
se s
Ġb oun
Ġc ow
Ġg i
ve l
itt ing
Ġbr own
Ġsn ake
e ad
Ġw he
Ġprom ised
Ġf an
Ġs illy
Ġp et
Ġhapp en
Wh ile
J ust
Ġevery thing
Ġy es
t s
Ġre s
ĠM aybe
ĠSo on
Ġparent s
Ġs oup
Ġmus ic
Ġvis it
Ġmu d
Ġlet ter
Ġf ree
at ed
Ġel se
Ġpiece s
Ġro ad
Ġchild ren
Ġb ite
st ead
Ġsa ng
Ġsh op
Ġcontin ued
F in
Ġtal king
Ġk ite
Ġperf ect
z z
Ġe gg
Ġfly ing
Ġsmile s
ĠB illy
Ġthr ow
Ġreal ized
Ġma il
Ġe ar
ĠSara h
or d
Ġwor ds
ĠE m
. âĢĿ
Ġamaz ing
ck et
Ġj ar
Ġlaug hing
Ġwag ged
Ġ que
Ġor ange
Ġse c
Ġmo ved
Ġs itting
Ġen ough
Ġclos ed
Ġ Z
Ġpa ss
Ġm other
Ġwith out
Ġshin ing
g ly
Ġsm o
Ġb uck
Ġst and
Ġcra b
Ġsa il
Ġro pe
Ġdanger ous
f ort
Ġb ath
Ġstr ange
Ġbar ked
Ġsec ret
Ġst u
ĠM imi
Ġdr ink
Ġtast y
un ch
Ġwelc ome
f ish
ell a
Ġpa w
us ed
i ver
bo ard
Ġcry ing
Ġc e
Ġhe al
Ġwh ist
Ġpa st
Ġl on
is es
Ġc andy
Ġli ving
ĠJ oe
Ġ -
Ġhig her
M aybe
c hes
Ġlon ely
Ġp re
ĠC h
Ġown er
Ġsho es
Ġbel ie
Ġsa ck
Ġfarm er
P lease
Ġmor ning
Ġto m
ar m
at o
ch ool
ĠJ en
g y
Ġsw ings
Ġdelic ious
Ġp urp
Ġs chool
ra ct
is k
ll ie
Ġsc ream
Ġte ac
i ble
Ġpus h
Ġfin ally
! âĢĿ
Ġp h
Ġst one
Ġgra ndma
Ġroll ed
ld er
Mom my
leph ant
Ġpudd le
i ch
Ġst re
Ġdoll s
m e
ĠB l
Ġbl ank
Ġget ting
i re
Ġl ake
am a
Ġask s
Ġpurp le
ll a
ask et
Ġm ad
Ġshe ll
Ġtr ou
Ġyear s
as ed
Ġca ught
Ġblank et
Ġc orn
s et
Ġtre asure
Ġw ore
Ġm oney
Ġrun s
u b
Ġb asket
Ġhop ed
Ġp ile
on s
Ġsa me
isk ers
e o
Ġsing ing
a pp
Ġher self
e y
Ġw ings
Ġp ers
Ġapp les
ck s
Ġb en
Ġcut e
b r
Ġb at
Ġm ine
ĠTom my
Ġj e
ig h
Ġpl ane
Ġgent le
Ġc ray
Ġcar rot
Ġe lephant
Ġteac her
Ġco at
Ġp ill
Ġse ar
Ġball s
Ġdro pped
Ġstar t
Ġf it
Ġt eddy
Ġday s
Ġc our
ir th
irth day
Ġdo ctor
Fin ally
in ed
Ġwa r
Ġcour se
Ġfore ver
Ġjo y
Ġwo ke
aught y
Ġn aughty
Ġhid ing
Ġc ard
Ġse ed
Ġm in
Ġbr ing
Ġprom ise
il k
ĠWh iskers
Ġmo st
Ġar ri
Ġte ach
Ġb and
Ġc r
Ġsp in
Ġcook ie
ump y
o l
Ġf ence
at or
Ġsh ap
Ġche e
Ġro b
Ġbus h
ĠG ra
ĠBl ue
Ġl unch
Ġm ilk
Ġsh r
Ġthink s
Ġb irthday
Ġu gly
Ġe as
ar p
Ġno se
Ġto uc
o se
ĠTh ank
Ġju ice
Ġo b
Ġv ill
Ġb ow
Ġgre w
Ġp op
Ġbel ong
s w
Ġan sw
Ġshap es
f used
i pped
it ch
Ġsh arp
ĠF red
a il
a ss
Ġcre at
Ġyou ng
Ġhear t
s y
ir t
um ber
Ġben ch
i er
ĠB ella
Ġstre et
' ll
b ow
ĠL eo
Ġsee m
J ack
Ġb one
Ġw ra
Ġl ate
Ġm ark
er ry
Ġab le
a le
b all
s c
et er
Ġbelie ve
Ġrock et
Ġz oom
Ġbuck et
Ġco in
Ġbre ad
Ġp ower
Ġpo cket
Ġmagic al
Ġdir t
Ġrob ot
Ġin c
Ġsh y
